
const unsigned char dht_anomaly_model_tflite[] = {
  0x1c, 0x00, 0x00, 0x00, 0x54, 0x46, 0x4c, 0x33, 0x14, 0x00, 0x20, 0x00,
  0x1c, 0x00, 0x18, 0x00, 0x14, 0x00, 0x10, 0x00, 0x0c, 0x00, 0x00, 0x00,
  0x08, 0x00, 0x04, 0x00, 0x14, 0x00, 0x00, 0x00, 0x1c, 0x00, 0x00, 0x00,
  0x98, 0x00, 0x00, 0x00, 0xf0, 0x00, 0x00, 0x00, 0x7c, 0x05, 0x00, 0x00,
  0x8c, 0x05, 0x00, 0x00, 0x2c, 0x0b, 0x00, 0x00, 0x03, 0x00, 0x00, 0x00,
  0x01, 0x00, 0x00, 0x00, 0x10, 0x00, 0x00, 0x00, 0x00, 0x00, 0x0a, 0x00,
  0x10, 0x00, 0x0c, 0x00, 0x08, 0x00, 0x04, 0x00, 0x0a, 0x00, 0x00, 0x00,
  0x0c, 0x00, 0x00, 0x00, 0x1c, 0x00, 0x00, 0x00, 0x3c, 0x00, 0x00, 0x00,
  0x0f, 0x00, 0x00, 0x00, 0x73, 0x65, 0x72, 0x76, 0x69, 0x6e, 0x67, 0x5f,
  0x64, 0x65, 0x66, 0x61, 0x75, 0x6c, 0x74, 0x00, 0x01, 0x00, 0x00, 0x00,
  0x04, 0x00, 0x00, 0x00, 0x90, 0xff, 0xff, 0xff, 0x0a, 0x00, 0x00, 0x00,
  0x04, 0x00, 0x00, 0x00, 0x08, 0x00, 0x00, 0x00, 0x6f, 0x75, 0x74, 0x70,
  0x75, 0x74, 0x5f, 0x30, 0x00, 0x00, 0x00, 0x00, 0x01, 0x00, 0x00, 0x00,
  0x04, 0x00, 0x00, 0x00, 0x6a, 0xfa, 0xff, 0xff, 0x04, 0x00, 0x00, 0x00,
  0x0c, 0x00, 0x00, 0x00, 0x6b, 0x65, 0x72, 0x61, 0x73, 0x5f, 0x74, 0x65,
  0x6e, 0x73, 0x6f, 0x72, 0x00, 0x00, 0x00, 0x00, 0x02, 0x00, 0x00, 0x00,
  0x34, 0x00, 0x00, 0x00, 0x04, 0x00, 0x00, 0x00, 0xdc, 0xff, 0xff, 0xff,
  0x0d, 0x00, 0x00, 0x00, 0x04, 0x00, 0x00, 0x00, 0x13, 0x00, 0x00, 0x00,
  0x43, 0x4f, 0x4e, 0x56, 0x45, 0x52, 0x53, 0x49, 0x4f, 0x4e, 0x5f, 0x4d,
  0x45, 0x54, 0x41, 0x44, 0x41, 0x54, 0x41, 0x00, 0x08, 0x00, 0x0c, 0x00,
  0x08, 0x00, 0x04, 0x00, 0x08, 0x00, 0x00, 0x00, 0x0c, 0x00, 0x00, 0x00,
  0x04, 0x00, 0x00, 0x00, 0x13, 0x00, 0x00, 0x00, 0x6d, 0x69, 0x6e, 0x5f,
  0x72, 0x75, 0x6e, 0x74, 0x69, 0x6d, 0x65, 0x5f, 0x76, 0x65, 0x72, 0x73,
  0x69, 0x6f, 0x6e, 0x00, 0x0e, 0x00, 0x00, 0x00, 0x88, 0x04, 0x00, 0x00,
  0x80, 0x04, 0x00, 0x00, 0x30, 0x04, 0x00, 0x00, 0x14, 0x04, 0x00, 0x00,
  0x44, 0x03, 0x00, 0x00, 0x34, 0x01, 0x00, 0x00, 0xe4, 0x00, 0x00, 0x00,
  0xb4, 0x00, 0x00, 0x00, 0xac, 0x00, 0x00, 0x00, 0xa4, 0x00, 0x00, 0x00,
  0x9c, 0x00, 0x00, 0x00, 0x94, 0x00, 0x00, 0x00, 0x74, 0x00, 0x00, 0x00,
  0x04, 0x00, 0x00, 0x00, 0x1e, 0xfb, 0xff, 0xff, 0x04, 0x00, 0x00, 0x00,
  0x60, 0x00, 0x00, 0x00, 0x0c, 0x00, 0x00, 0x00, 0x08, 0x00, 0x0e, 0x00,
  0x08, 0x00, 0x04, 0x00, 0x08, 0x00, 0x00, 0x00, 0x10, 0x00, 0x00, 0x00,
  0x28, 0x00, 0x00, 0x00, 0x00, 0x00, 0x06, 0x00, 0x08, 0x00, 0x04, 0x00,
  0x06, 0x00, 0x00, 0x00, 0x04, 0x00, 0x00, 0x00, 0x01, 0x00, 0x00, 0x00,
  0xea, 0x03, 0x00, 0x00, 0x0c, 0x00, 0x18, 0x00, 0x14, 0x00, 0x10, 0x00,
  0x0c, 0x00, 0x04, 0x00, 0x0c, 0x00, 0x00, 0x00, 0x38, 0xdf, 0xfa, 0xf1,
  0xd3, 0x06, 0x85, 0x5e, 0x02, 0x00, 0x00, 0x00, 0x02, 0x00, 0x00, 0x00,
  0x04, 0x00, 0x00, 0x00, 0x06, 0x00, 0x00, 0x00, 0x32, 0x2e, 0x32, 0x30,
  0x2e, 0x30, 0x00, 0x00, 0x8a, 0xfb, 0xff, 0xff, 0x04, 0x00, 0x00, 0x00,
  0x10, 0x00, 0x00, 0x00, 0x31, 0x2e, 0x35, 0x2e, 0x30, 0x00, 0x00, 0x00,
  0x00, 0x00, 0x00, 0x00, 0x00, 0x00, 0x00, 0x00, 0xb4, 0xf6, 0xff, 0xff,
  0xb8, 0xf6, 0xff, 0xff, 0xbc, 0xf6, 0xff, 0xff, 0xc0, 0xf6, 0xff, 0xff,
  0xb6, 0xfb, 0xff, 0xff, 0x04, 0x00, 0x00, 0x00, 0x20, 0x00, 0x00, 0x00,
  0x00, 0x00, 0x00, 0x00, 0x78, 0x3e, 0x5f, 0x3c, 0xb5, 0xcc, 0x09, 0xbd,
  0x9c, 0xa8, 0x43, 0x3d, 0x00, 0x00, 0x00, 0x00, 0x00, 0x00, 0x00, 0x00,
  0xd3, 0x89, 0x7b, 0xbc, 0x2d, 0x9e, 0x3b, 0xbd, 0xe2, 0xfb, 0xff, 0xff,
  0x04, 0x00, 0x00, 0x00, 0x40, 0x00, 0x00, 0x00, 0x91, 0x64, 0xd8, 0xbe,
  0x5e, 0x32, 0x42, 0xbf, 0x41, 0x04, 0xd9, 0xbd, 0xa5, 0x93, 0xb6, 0x3d,
  0x64, 0xac, 0xfc, 0x3e, 0xb8, 0xf3, 0x44, 0xbf, 0x27, 0x59, 0xf4, 0x3e,
  0x70, 0xb7, 0x04, 0x3f, 0x80, 0xfb, 0x67, 0xbc, 0x40, 0xbb, 0x61, 0xbd,
  0x20, 0x42, 0x7a, 0xbd, 0x78, 0x5e, 0x02, 0xbf, 0x68, 0x97, 0xe1, 0xbe,
  0xcf, 0x74, 0x1a, 0x3f, 0x1f, 0xcf, 0x24, 0x3f, 0xd2, 0xd3, 0x25, 0xbf,
  0x2e, 0xfc, 0xff, 0xff, 0x04, 0x00, 0x00, 0x00, 0x00, 0x02, 0x00, 0x00,
  0xe0, 0x5c, 0x36, 0xbe, 0x55, 0x9a, 0xa4, 0x3e, 0x04, 0xd2, 0xab, 0xbe,
  0xa9, 0x7f, 0xfc, 0xbd, 0xe8, 0xe7, 0x31, 0x3e, 0x00, 0xc4, 0x70, 0xbb,
  0x61, 0xf3, 0xc1, 0x3e, 0x30, 0x9a, 0xb9, 0xbe, 0x58, 0x32, 0x92, 0x3e,
  0x65, 0xc7, 0xf0, 0xbe, 0x7a, 0x46, 0x25, 0x3e, 0x9d, 0x9b, 0x7d, 0x3e,
  0xf0, 0xe7, 0x06, 0xbe, 0xfc, 0x6c, 0x97, 0x3e, 0x6e, 0x4f, 0x2e, 0x3e,
  0xbc, 0xd3, 0x10, 0xbe, 0xa0, 0x15, 0xaf, 0x3d, 0x0f, 0x11, 0x57, 0xbe,
  0xca, 0x61, 0xe2, 0x3e, 0x2a, 0xd0, 0x7c, 0xbe, 0xe0, 0x66, 0x5b, 0xbe,
  0x94, 0x61, 0xbe, 0x3e, 0x5c, 0xbd, 0xaf, 0x3e, 0x8f, 0xf0, 0x4a, 0xbe,
  0x6c, 0xbd, 0xd0, 0x3e, 0x70, 0x87, 0x20, 0xbe, 0x30, 0x67, 0xc0, 0xbe,
  0xd4, 0x5d, 0xe9, 0xbe, 0x40, 0x5c, 0xb1, 0x3c, 0x70, 0x20, 0xcb, 0xbd,
  0x24, 0xea, 0xc1, 0xbe, 0x8c, 0x92, 0xf7, 0x3e, 0x10, 0xa0, 0x95, 0xbe,
  0xa9, 0x95, 0x00, 0xbf, 0x06, 0x4c, 0xd2, 0xbe, 0xee, 0x55, 0xa9, 0x3e,
  0x80, 0x45, 0xee, 0x3c, 0x80, 0x16, 0x0e, 0xbc, 0x6e, 0x9f, 0x88, 0x3d,
  0x30, 0x2c, 0x40, 0xbc, 0x64, 0x3b, 0x8f, 0xbe, 0x67, 0xeb, 0x33, 0x3e,
  0x85, 0x11, 0x06, 0xbd, 0xd4, 0x7d, 0xf6, 0xbd, 0x00, 0x64, 0x92, 0x3c,
  0x3c, 0x2c, 0xd9, 0x3e, 0x7b, 0x5a, 0xc7, 0x3d, 0x04, 0x9c, 0xae, 0x3e,
  0x40, 0x71, 0x92, 0x3e, 0xf0, 0x43, 0x6c, 0x3e, 0xe1, 0xd9, 0x1a, 0x3e,
  0x7c, 0xfd, 0xe3, 0xbe, 0x4c, 0xf7, 0xdf, 0xbe, 0xb0, 0xa1, 0x06, 0xbe,
  0xc8, 0xd5, 0x6b, 0xbe, 0x97, 0x26, 0xcf, 0x3e, 0xb0, 0x77, 0x25, 0x3e,
  0xe0, 0xda, 0xd9, 0x3d, 0x0e, 0xd9, 0x9c, 0x3e, 0x05, 0x28, 0xcc, 0x3c,
  0xe0, 0x13, 0xf7, 0xbe, 0xf0, 0xd7, 0xaf, 0xbe, 0x1c, 0x3b, 0xc0, 0xbe,
  0xc6, 0xb5, 0x8a, 0xbe, 0x10, 0x0e, 0x80, 0x3e, 0x79, 0x48, 0x87, 0x3e,
  0x34, 0x05, 0xce, 0x3e, 0x4d, 0x57, 0x81, 0xbe, 0x6c, 0x59, 0xb7, 0xbe,
  0xe8, 0x4e, 0x7e, 0x3e, 0xa0, 0xfe, 0x00, 0x3f, 0x18, 0xbd, 0x93, 0xbe,
  0x4c, 0x2f, 0xd3, 0x3e, 0x31, 0x47, 0xa2, 0xbe, 0xc0, 0xe1, 0xb9, 0x3d,
  0x7e, 0x78, 0x66, 0xbe, 0x00, 0x78, 0xd7, 0x3b, 0xc0, 0xc5, 0x7c, 0x3d,
  0xf4, 0xad, 0x99, 0x3e, 0x28, 0xb5, 0x6f, 0xbe, 0x98, 0x58, 0x8f, 0x3e,
  0x60, 0x38, 0x78, 0x3e, 0x1e, 0x82, 0xbb, 0x3d, 0x91, 0x84, 0xd6, 0xbe,
  0x00, 0x3e, 0x56, 0xbe, 0x94, 0x27, 0x8d, 0x3e, 0x7c, 0x69, 0xda, 0xbe,
  0x9f, 0x69, 0xcf, 0x3e, 0x28, 0x55, 0xcb, 0xbe, 0x00, 0x52, 0x34, 0xbd,
  0xe0, 0x4e, 0x57, 0xbe, 0x10, 0x4f, 0x88, 0xbe, 0x9c, 0x9e, 0xeb, 0xbe,
  0x40, 0x83, 0x85, 0x3c, 0x5c, 0xb1, 0xef, 0xbe, 0x60, 0x56, 0x67, 0x3e,
  0x48, 0x4b, 0xea, 0xbe, 0xb0, 0x2e, 0x8d, 0x3d, 0x8c, 0x95, 0x95, 0xbe,
  0xe8, 0xd0, 0xef, 0xbe, 0x80, 0x1a, 0xf2, 0x3e, 0xc0, 0x14, 0x11, 0xbe,
  0x90, 0xc1, 0x8d, 0xbe, 0x00, 0xce, 0xa6, 0x3c, 0x30, 0x37, 0x1b, 0x3e,
  0x28, 0xf2, 0x4c, 0x3d, 0xb1, 0x1b, 0xf6, 0x3d, 0x01, 0xea, 0x88, 0x3e,
  0xf8, 0xa9, 0xfa, 0xbe, 0xac, 0x46, 0x8e, 0x3e, 0xe6, 0x3d, 0x92, 0x3d,
  0xac, 0x4c, 0xac, 0xbe, 0x00, 0x7a, 0x3f, 0xbb, 0xf1, 0xd2, 0xdf, 0xbe,
  0x40, 0xc6, 0x29, 0xbd, 0x93, 0x72, 0x99, 0xbc, 0x94, 0x17, 0xa4, 0x3e,
  0xd0, 0xbf, 0xba, 0xbe, 0x65, 0x7a, 0xad, 0x3e, 0xc0, 0xaa, 0xe1, 0xbd,
  0xe0, 0x68, 0xbb, 0xbe, 0x28, 0x2d, 0x40, 0xbe, 0x80, 0xaa, 0x36, 0xbd,
  0xf0, 0xb2, 0x2c, 0xbe, 0x60, 0x2a, 0xb4, 0xbe, 0x78, 0xfe, 0x95, 0x3e,
  0xa0, 0xee, 0x94, 0x3d, 0x00, 0x50, 0x0d, 0x3c, 0x3a, 0xfe, 0xff, 0xff,
  0x04, 0x00, 0x00, 0x00, 0xc0, 0x00, 0x00, 0x00, 0x53, 0x20, 0x82, 0xbe,
  0x5c, 0xac, 0xe0, 0x3e, 0x61, 0x7e, 0xf1, 0x3e, 0x40, 0xe6, 0xf4, 0x3d,
  0x83, 0xe7, 0xde, 0xbe, 0x2f, 0xb2, 0xb0, 0xbe, 0x04, 0xd5, 0x01, 0xbd,
  0xa4, 0xcf, 0x1e, 0xbe, 0x28, 0xa9, 0x3b, 0xbe, 0x38, 0x36, 0x89, 0x3e,
  0x89, 0xfa, 0xad, 0xbe, 0x40, 0x5b, 0x6d, 0x3c, 0x7f, 0x4d, 0xd2, 0xbe,
  0xa1, 0x34, 0x03, 0xbf, 0x2a, 0xe3, 0xb7, 0x3e, 0x00, 0xfe, 0x98, 0x3c,
  0x7e, 0x4d, 0xa0, 0x3e, 0x71, 0x0d, 0x05, 0xbd, 0x65, 0xf3, 0x39, 0x3e,
  0xf0, 0x6c, 0x5f, 0x3d, 0x22, 0x2e, 0xd7, 0x3e, 0x41, 0xd7, 0x2e, 0xbe,
  0x59, 0xd1, 0xe8, 0x3e, 0x17, 0x07, 0x84, 0xbe, 0x28, 0x95, 0x06, 0xbf,
  0x86, 0x1c, 0x02, 0x3f, 0x77, 0xe6, 0x15, 0xbf, 0x5e, 0xf0, 0x2d, 0xbe,
  0x29, 0x4f, 0x04, 0x3f, 0x7e, 0xad, 0x67, 0xbd, 0xa1, 0xe7, 0x0f, 0xbe,
  0xbc, 0x89, 0xfa, 0xbe, 0xb1, 0x00, 0xdb, 0xbe, 0x85, 0xef, 0x15, 0xbd,
  0x0d, 0x49, 0x28, 0x3c, 0xfe, 0x8e, 0x0f, 0xbf, 0x6d, 0x6a, 0x60, 0x3e,
  0x7e, 0xef, 0xa1, 0xbe, 0x53, 0xf1, 0xd7, 0x3d, 0xaf, 0xe0, 0x88, 0xbe,
  0x34, 0x03, 0xec, 0x3e, 0x72, 0x14, 0x82, 0xbd, 0x8f, 0x08, 0x08, 0x3d,
  0xa2, 0x4b, 0xf4, 0xbe, 0x08, 0xa9, 0x61, 0xbe, 0x0e, 0x4a, 0x0a, 0x3f,
  0x95, 0xe2, 0x82, 0xbe, 0x28, 0xd3, 0x52, 0x3e, 0x06, 0xff, 0xff, 0xff,
  0x04, 0x00, 0x00, 0x00, 0x0c, 0x00, 0x00, 0x00, 0x75, 0xd6, 0x51, 0x3d,
  0x56, 0xbb, 0x5e, 0xbd, 0x00, 0xe3, 0x57, 0x3d, 0x1e, 0xff, 0xff, 0xff,
  0x04, 0x00, 0x00, 0x00, 0x40, 0x00, 0x00, 0x00, 0x10, 0x32, 0x72, 0xbc,
  0x24, 0xad, 0x37, 0x3d, 0xaa, 0x85, 0xee, 0xbc, 0x00, 0x00, 0x00, 0x00,
  0x4a, 0x5d, 0x4b, 0xbc, 0xe7, 0x7e, 0x51, 0xbd, 0xdc, 0x7d, 0x61, 0xbd,
  0x1a, 0x9b, 0xf2, 0xbb, 0x85, 0x5b, 0x5f, 0x3c, 0x68, 0xc0, 0x5e, 0xbc,
  0x68, 0x76, 0x71, 0x3d, 0x00, 0x00, 0x00, 0x00, 0x00, 0x00, 0x00, 0x00,
  0x64, 0x11, 0x7f, 0x3c, 0x3b, 0x94, 0x6b, 0xbc, 0x00, 0x00, 0x00, 0x00,
  0x78, 0xfa, 0xff, 0xff, 0x7c, 0xfa, 0xff, 0xff, 0x0f, 0x00, 0x00, 0x00,
  0x4d, 0x4c, 0x49, 0x52, 0x20, 0x43, 0x6f, 0x6e, 0x76, 0x65, 0x72, 0x74,
  0x65, 0x64, 0x2e, 0x00, 0x01, 0x00, 0x00, 0x00, 0x14, 0x00, 0x00, 0x00,
  0x00, 0x00, 0x0e, 0x00, 0x18, 0x00, 0x14, 0x00, 0x10, 0x00, 0x0c, 0x00,
  0x08, 0x00, 0x04, 0x00, 0x0e, 0x00, 0x00, 0x00, 0x14, 0x00, 0x00, 0x00,
  0x1c, 0x00, 0x00, 0x00, 0x24, 0x01, 0x00, 0x00, 0x28, 0x01, 0x00, 0x00,
  0x2c, 0x01, 0x00, 0x00, 0x04, 0x00, 0x00, 0x00, 0x6d, 0x61, 0x69, 0x6e,
  0x00, 0x00, 0x00, 0x00, 0x04, 0x00, 0x00, 0x00, 0xcc, 0x00, 0x00, 0x00,
  0x84, 0x00, 0x00, 0x00, 0x50, 0x00, 0x00, 0x00, 0x14, 0x00, 0x00, 0x00,
  0x00, 0x00, 0x0e, 0x00, 0x1a, 0x00, 0x14, 0x00, 0x10, 0x00, 0x0c, 0x00,
  0x0b, 0x00, 0x04, 0x00, 0x0e, 0x00, 0x00, 0x00, 0x1c, 0x00, 0x00, 0x00,
  0x00, 0x00, 0x00, 0x09, 0x1c, 0x00, 0x00, 0x00, 0x20, 0x00, 0x00, 0x00,
  0x01, 0x00, 0x00, 0x00, 0x00, 0x00, 0x06, 0x00, 0x08, 0x00, 0x04, 0x00,
  0x06, 0x00, 0x00, 0x00, 0x00, 0x00, 0x80, 0x3f, 0x01, 0x00, 0x00, 0x00,
  0x0a, 0x00, 0x00, 0x00, 0x01, 0x00, 0x00, 0x00, 0x09, 0x00, 0x00, 0x00,
  0x9a, 0xff, 0xff, 0xff, 0x10, 0x00, 0x00, 0x00, 0x00, 0x00, 0x00, 0x08,
  0x0c, 0x00, 0x00, 0x00, 0x10, 0x00, 0x00, 0x00, 0x40, 0xfb, 0xff, 0xff,
  0x01, 0x00, 0x00, 0x00, 0x09, 0x00, 0x00, 0x00, 0x03, 0x00, 0x00, 0x00,
  0x08, 0x00, 0x00, 0x00, 0x03, 0x00, 0x00, 0x00, 0x02, 0x00, 0x00, 0x00,
  0xca, 0xff, 0xff, 0xff, 0x10, 0x00, 0x00, 0x00, 0x00, 0x00, 0x00, 0x08,
  0x10, 0x00, 0x00, 0x00, 0x14, 0x00, 0x00, 0x00, 0xba, 0xff, 0xff, 0xff,
  0x00, 0x00, 0x00, 0x01, 0x01, 0x00, 0x00, 0x00, 0x08, 0x00, 0x00, 0x00,
  0x03, 0x00, 0x00, 0x00, 0x07, 0x00, 0x00, 0x00, 0x04, 0x00, 0x00, 0x00,
  0x01, 0x00, 0x00, 0x00, 0x00, 0x00, 0x0e, 0x00, 0x16, 0x00, 0x00, 0x00,
  0x10, 0x00, 0x0c, 0x00, 0x0b, 0x00, 0x04, 0x00, 0x0e, 0x00, 0x00, 0x00,
  0x18, 0x00, 0x00, 0x00, 0x00, 0x00, 0x00, 0x08, 0x18, 0x00, 0x00, 0x00,
  0x1c, 0x00, 0x00, 0x00, 0x00, 0x00, 0x06, 0x00, 0x08, 0x00, 0x07, 0x00,
  0x06, 0x00, 0x00, 0x00, 0x00, 0x00, 0x00, 0x01, 0x01, 0x00, 0x00, 0x00,
  0x07, 0x00, 0x00, 0x00, 0x03, 0x00, 0x00, 0x00, 0x00, 0x00, 0x00, 0x00,
  0x05, 0x00, 0x00, 0x00, 0x06, 0x00, 0x00, 0x00, 0x01, 0x00, 0x00, 0x00,
  0x0a, 0x00, 0x00, 0x00, 0x01, 0x00, 0x00, 0x00, 0x00, 0x00, 0x00, 0x00,
  0x0b, 0x00, 0x00, 0x00, 0xe8, 0x03, 0x00, 0x00, 0x94, 0x03, 0x00, 0x00,
  0x40, 0x03, 0x00, 0x00, 0x00, 0x03, 0x00, 0x00, 0xc0, 0x02, 0x00, 0x00,
  0x74, 0x02, 0x00, 0x00, 0x10, 0x02, 0x00, 0x00, 0x7c, 0x01, 0x00, 0x00,
  0xe0, 0x00, 0x00, 0x00, 0x60, 0x00, 0x00, 0x00, 0x04, 0x00, 0x00, 0x00,
  0x5a, 0xfc, 0xff, 0xff, 0x00, 0x00, 0x00, 0x01, 0x14, 0x00, 0x00, 0x00,
  0x1c, 0x00, 0x00, 0x00, 0x1c, 0x00, 0x00, 0x00, 0x0b, 0x00, 0x00, 0x00,
  0x34, 0x00, 0x00, 0x00, 0x02, 0x00, 0x00, 0x00, 0xff, 0xff, 0xff, 0xff,
  0x03, 0x00, 0x00, 0x00, 0x44, 0xfc, 0xff, 0xff, 0x1b, 0x00, 0x00, 0x00,
  0x53, 0x74, 0x61, 0x74, 0x65, 0x66, 0x75, 0x6c, 0x50, 0x61, 0x72, 0x74,
  0x69, 0x74, 0x69, 0x6f, 0x6e, 0x65, 0x64, 0x43, 0x61, 0x6c, 0x6c, 0x5f,
  0x31, 0x3a, 0x30, 0x00, 0x02, 0x00, 0x00, 0x00, 0x01, 0x00, 0x00, 0x00,
  0x03, 0x00, 0x00, 0x00, 0xb2, 0xfc, 0xff, 0xff, 0x00, 0x00, 0x00, 0x01,
  0x14, 0x00, 0x00, 0x00, 0x1c, 0x00, 0x00, 0x00, 0x1c, 0x00, 0x00, 0x00,
  0x0a, 0x00, 0x00, 0x00, 0x58, 0x00, 0x00, 0x00, 0x02, 0x00, 0x00, 0x00,
  0xff, 0xff, 0xff, 0xff, 0x03, 0x00, 0x00, 0x00, 0x9c, 0xfc, 0xff, 0xff,
  0x3c, 0x00, 0x00, 0x00, 0x73, 0x65, 0x71, 0x75, 0x65, 0x6e, 0x74, 0x69,
  0x61, 0x6c, 0x5f, 0x31, 0x2f, 0x64, 0x65, 0x6e, 0x73, 0x65, 0x5f, 0x32,
  0x5f, 0x31, 0x2f, 0x4d, 0x61, 0x74, 0x4d, 0x75, 0x6c, 0x3b, 0x73, 0x65,
  0x71, 0x75, 0x65, 0x6e, 0x74, 0x69, 0x61, 0x6c, 0x5f, 0x31, 0x2f, 0x64,
  0x65, 0x6e, 0x73, 0x65, 0x5f, 0x32, 0x5f, 0x31, 0x2f, 0x42, 0x69, 0x61,
  0x73, 0x41, 0x64, 0x64, 0x00, 0x00, 0x00, 0x00, 0x02, 0x00, 0x00, 0x00,
  0x01, 0x00, 0x00, 0x00, 0x03, 0x00, 0x00, 0x00, 0x2e, 0xfd, 0xff, 0xff,
  0x00, 0x00, 0x00, 0x01, 0x14, 0x00, 0x00, 0x00, 0x1c, 0x00, 0x00, 0x00,
  0x1c, 0x00, 0x00, 0x00, 0x09, 0x00, 0x00, 0x00, 0x74, 0x00, 0x00, 0x00,
  0x02, 0x00, 0x00, 0x00, 0xff, 0xff, 0xff, 0xff, 0x10, 0x00, 0x00, 0x00,
  0x18, 0xfd, 0xff, 0xff, 0x58, 0x00, 0x00, 0x00, 0x73, 0x65, 0x71, 0x75,
  0x65, 0x6e, 0x74, 0x69, 0x61, 0x6c, 0x5f, 0x31, 0x2f, 0x64, 0x65, 0x6e,
  0x73, 0x65, 0x5f, 0x31, 0x5f, 0x32, 0x2f, 0x4d, 0x61, 0x74, 0x4d, 0x75,
  0x6c, 0x3b, 0x73, 0x65, 0x71, 0x75, 0x65, 0x6e, 0x74, 0x69, 0x61, 0x6c,
  0x5f, 0x31, 0x2f, 0x64, 0x65, 0x6e, 0x73, 0x65, 0x5f, 0x31, 0x5f, 0x32,
  0x2f, 0x52, 0x65, 0x6c, 0x75, 0x3b, 0x73, 0x65, 0x71, 0x75, 0x65, 0x6e,
  0x74, 0x69, 0x61, 0x6c, 0x5f, 0x31, 0x2f, 0x64, 0x65, 0x6e, 0x73, 0x65,
  0x5f, 0x31, 0x5f, 0x32, 0x2f, 0x42, 0x69, 0x61, 0x73, 0x41, 0x64, 0x64,
  0x00, 0x00, 0x00, 0x00, 0x02, 0x00, 0x00, 0x00, 0x01, 0x00, 0x00, 0x00,
  0x10, 0x00, 0x00, 0x00, 0xc6, 0xfd, 0xff, 0xff, 0x00, 0x00, 0x00, 0x01,
  0x14, 0x00, 0x00, 0x00, 0x1c, 0x00, 0x00, 0x00, 0x1c, 0x00, 0x00, 0x00,
  0x08, 0x00, 0x00, 0x00, 0x6c, 0x00, 0x00, 0x00, 0x02, 0x00, 0x00, 0x00,
  0xff, 0xff, 0xff, 0xff, 0x08, 0x00, 0x00, 0x00, 0xb0, 0xfd, 0xff, 0xff,
  0x52, 0x00, 0x00, 0x00, 0x73, 0x65, 0x71, 0x75, 0x65, 0x6e, 0x74, 0x69,
  0x61, 0x6c, 0x5f, 0x31, 0x2f, 0x64, 0x65, 0x6e, 0x73, 0x65, 0x5f, 0x31,
  0x2f, 0x4d, 0x61, 0x74, 0x4d, 0x75, 0x6c, 0x3b, 0x73, 0x65, 0x71, 0x75,
  0x65, 0x6e, 0x74, 0x69, 0x61, 0x6c, 0x5f, 0x31, 0x2f, 0x64, 0x65, 0x6e,
  0x73, 0x65, 0x5f, 0x31, 0x2f, 0x52, 0x65, 0x6c, 0x75, 0x3b, 0x73, 0x65,
  0x71, 0x75, 0x65, 0x6e, 0x74, 0x69, 0x61, 0x6c, 0x5f, 0x31, 0x2f, 0x64,
  0x65, 0x6e, 0x73, 0x65, 0x5f, 0x31, 0x2f, 0x42, 0x69, 0x61, 0x73, 0x41,
  0x64, 0x64, 0x00, 0x00, 0x02, 0x00, 0x00, 0x00, 0x01, 0x00, 0x00, 0x00,
  0x08, 0x00, 0x00, 0x00, 0xa6, 0xfe, 0xff, 0xff, 0x00, 0x00, 0x00, 0x01,
  0x10, 0x00, 0x00, 0x00, 0x10, 0x00, 0x00, 0x00, 0x07, 0x00, 0x00, 0x00,
  0x44, 0x00, 0x00, 0x00, 0x30, 0xfe, 0xff, 0xff, 0x36, 0x00, 0x00, 0x00,
  0x73, 0x65, 0x71, 0x75, 0x65, 0x6e, 0x74, 0x69, 0x61, 0x6c, 0x5f, 0x31,
  0x2f, 0x64, 0x65, 0x6e, 0x73, 0x65, 0x5f, 0x31, 0x2f, 0x52, 0x65, 0x6c,
  0x75, 0x3b, 0x73, 0x65, 0x71, 0x75, 0x65, 0x6e, 0x74, 0x69, 0x61, 0x6c,
  0x5f, 0x31, 0x2f, 0x64, 0x65, 0x6e, 0x73, 0x65, 0x5f, 0x31, 0x2f, 0x42,
  0x69, 0x61, 0x73, 0x41, 0x64, 0x64, 0x00, 0x00, 0x01, 0x00, 0x00, 0x00,
  0x08, 0x00, 0x00, 0x00, 0x06, 0xff, 0xff, 0xff, 0x00, 0x00, 0x00, 0x01,
  0x10, 0x00, 0x00, 0x00, 0x10, 0x00, 0x00, 0x00, 0x06, 0x00, 0x00, 0x00,
  0x28, 0x00, 0x00, 0x00, 0x90, 0xfe, 0xff, 0xff, 0x1b, 0x00, 0x00, 0x00,
  0x73, 0x65, 0x71, 0x75, 0x65, 0x6e, 0x74, 0x69, 0x61, 0x6c, 0x5f, 0x31,
  0x2f, 0x64, 0x65, 0x6e, 0x73, 0x65, 0x5f, 0x31, 0x2f, 0x4d, 0x61, 0x74,
  0x4d, 0x75, 0x6c, 0x00, 0x02, 0x00, 0x00, 0x00, 0x08, 0x00, 0x00, 0x00,
  0x02, 0x00, 0x00, 0x00, 0x4e, 0xff, 0xff, 0xff, 0x00, 0x00, 0x00, 0x01,
  0x10, 0x00, 0x00, 0x00, 0x10, 0x00, 0x00, 0x00, 0x05, 0x00, 0x00, 0x00,
  0x1c, 0x00, 0x00, 0x00, 0xd8, 0xfe, 0xff, 0xff, 0x0f, 0x00, 0x00, 0x00,
  0x61, 0x72, 0x69, 0x74, 0x68, 0x2e, 0x63, 0x6f, 0x6e, 0x73, 0x74, 0x61,
  0x6e, 0x74, 0x33, 0x00, 0x02, 0x00, 0x00, 0x00, 0x10, 0x00, 0x00, 0x00,
  0x08, 0x00, 0x00, 0x00, 0x8a, 0xff, 0xff, 0xff, 0x00, 0x00, 0x00, 0x01,
  0x10, 0x00, 0x00, 0x00, 0x10, 0x00, 0x00, 0x00, 0x04, 0x00, 0x00, 0x00,
  0x1c, 0x00, 0x00, 0x00, 0x14, 0xff, 0xff, 0xff, 0x0f, 0x00, 0x00, 0x00,
  0x61, 0x72, 0x69, 0x74, 0x68, 0x2e, 0x63, 0x6f, 0x6e, 0x73, 0x74, 0x61,
  0x6e, 0x74, 0x32, 0x00, 0x02, 0x00, 0x00, 0x00, 0x03, 0x00, 0x00, 0x00,
  0x10, 0x00, 0x00, 0x00, 0xc6, 0xff, 0xff, 0xff, 0x00, 0x00, 0x00, 0x01,
  0x10, 0x00, 0x00, 0x00, 0x10, 0x00, 0x00, 0x00, 0x03, 0x00, 0x00, 0x00,
  0x1c, 0x00, 0x00, 0x00, 0x50, 0xff, 0xff, 0xff, 0x0f, 0x00, 0x00, 0x00,
  0x61, 0x72, 0x69, 0x74, 0x68, 0x2e, 0x63, 0x6f, 0x6e, 0x73, 0x74, 0x61,
  0x6e, 0x74, 0x31, 0x00, 0x01, 0x00, 0x00, 0x00, 0x03, 0x00, 0x00, 0x00,
  0x00, 0x00, 0x16, 0x00, 0x18, 0x00, 0x14, 0x00, 0x00, 0x00, 0x10, 0x00,
  0x0c, 0x00, 0x08, 0x00, 0x00, 0x00, 0x00, 0x00, 0x00, 0x00, 0x07, 0x00,
  0x16, 0x00, 0x00, 0x00, 0x00, 0x00, 0x00, 0x01, 0x10, 0x00, 0x00, 0x00,
  0x10, 0x00, 0x00, 0x00, 0x02, 0x00, 0x00, 0x00, 0x1c, 0x00, 0x00, 0x00,
  0xa0, 0xff, 0xff, 0xff, 0x0e, 0x00, 0x00, 0x00, 0x61, 0x72, 0x69, 0x74,
  0x68, 0x2e, 0x63, 0x6f, 0x6e, 0x73, 0x74, 0x61, 0x6e, 0x74, 0x00, 0x00,
  0x01, 0x00, 0x00, 0x00, 0x10, 0x00, 0x00, 0x00, 0x00, 0x00, 0x16, 0x00,
  0x1c, 0x00, 0x18, 0x00, 0x00, 0x00, 0x14, 0x00, 0x10, 0x00, 0x0c, 0x00,
  0x00, 0x00, 0x00, 0x00, 0x08, 0x00, 0x07, 0x00, 0x16, 0x00, 0x00, 0x00,
  0x00, 0x00, 0x00, 0x01, 0x14, 0x00, 0x00, 0x00, 0x20, 0x00, 0x00, 0x00,
  0x20, 0x00, 0x00, 0x00, 0x01, 0x00, 0x00, 0x00, 0x3c, 0x00, 0x00, 0x00,
  0x02, 0x00, 0x00, 0x00, 0xff, 0xff, 0xff, 0xff, 0x02, 0x00, 0x00, 0x00,
  0x04, 0x00, 0x04, 0x00, 0x04, 0x00, 0x00, 0x00, 0x1e, 0x00, 0x00, 0x00,
  0x73, 0x65, 0x72, 0x76, 0x69, 0x6e, 0x67, 0x5f, 0x64, 0x65, 0x66, 0x61,
  0x75, 0x6c, 0x74, 0x5f, 0x6b, 0x65, 0x72, 0x61, 0x73, 0x5f, 0x74, 0x65,
  0x6e, 0x73, 0x6f, 0x72, 0x3a, 0x30, 0x00, 0x00, 0x02, 0x00, 0x00, 0x00,
  0x01, 0x00, 0x00, 0x00, 0x02, 0x00, 0x00, 0x00, 0x02, 0x00, 0x00, 0x00,
  0x20, 0x00, 0x00, 0x00, 0x04, 0x00, 0x00, 0x00, 0xf4, 0xff, 0xff, 0xff,
  0x19, 0x00, 0x00, 0x00, 0x00, 0x00, 0x00, 0x19, 0x0c, 0x00, 0x0c, 0x00,
  0x0b, 0x00, 0x00, 0x00, 0x00, 0x00, 0x04, 0x00, 0x0c, 0x00, 0x00, 0x00,
  0x09, 0x00, 0x00, 0x00, 0x00, 0x00, 0x00, 0x09
};

